#include "network_data.h"

ai_handle ai_network_data_weights_get(void)
{

  AI_ALIGNED(4)
  static const ai_u8 s_network_weights[ 6692 ] = {
    0x22, 0xaa, 0x95, 0xc0, 0xe0, 0xbf, 0x83, 0xc0, 0x4b, 0xe8,
    0x64, 0xc0, 0xa5, 0x47, 0x36, 0xc0, 0xf9, 0xbc, 0x10, 0xc0,
    0x97, 0x72, 0xe4, 0xbf, 0xec, 0x2f, 0xa3, 0xbf, 0x46, 0xc6,
    0x56, 0xbf, 0x74, 0x6a, 0xec, 0xbe, 0x93, 0x4a, 0x0d, 0xbe,
    0xd6, 0x66, 0xed, 0x3d, 0x1b, 0xe3, 0xd7, 0x3e, 0x7c, 0xf7,
    0x44, 0x3f, 0x8f, 0x0a, 0x9b, 0x3f, 0xd8, 0x16, 0xe8, 0x3f,
    0x73, 0xd1, 0x1b, 0x40, 0xaa, 0xab, 0xa9, 0x99, 0xb9, 0xb8,
    0x8a, 0xb9, 0xab, 0xaa, 0xab, 0xa9, 0xa9, 0xaa, 0x99, 0x87,
    0x77, 0x88, 0x87, 0x99, 0xa8, 0x9b, 0xba, 0xaa, 0xaa, 0xba,
    0xbb, 0xbc, 0xdd, 0xcc, 0xbb, 0xac, 0xba, 0x89, 0xa8, 0xa9,
    0x86, 0x78, 0x98, 0x67, 0x89, 0x9a, 0xa8, 0x89, 0xbd, 0xba,
    0x9a, 0x98, 0x76, 0x7a, 0xcb, 0xb9, 0x8d, 0xba, 0x8b, 0xba,
    0xa8, 0x9a, 0x89, 0x89, 0x99, 0x98, 0x8a, 0xb8, 0x98, 0xdc,
    0xa9, 0x86, 0x57, 0x87, 0x77, 0xab, 0xca, 0xbc, 0xcc, 0xca,
    0xb8, 0x76, 0x76, 0x78, 0xa9, 0xa9, 0xb9, 0xa8, 0x99, 0xbc,
    0xdd, 0xbb, 0xdc, 0xaa, 0x8c, 0xa8, 0x7a, 0x80, 0xb8, 0xf6,
    0x6d, 0xef, 0xdb, 0x9a, 0x97, 0x89, 0x88, 0x99, 0xa9, 0xaa,
    0x99, 0xa9, 0x99, 0xab, 0xaa, 0x8a, 0xba, 0x9b, 0xbb, 0xbc,
    0xac, 0xb9, 0xaa, 0x98, 0x99, 0x99, 0x88, 0x88, 0x89, 0x87,
    0x78, 0x8a, 0xa9, 0x9a, 0xaa, 0xab, 0xa9, 0x89, 0xbc, 0xba,
    0xaa, 0x87, 0xaa, 0x99, 0x99, 0xa8, 0x9a, 0xaa, 0xba, 0x9a,
    0xaa, 0xaa, 0x8a, 0xab, 0x88, 0x9a, 0x89, 0xa9, 0x9a, 0xaa,
    0xac, 0xba, 0x89, 0x88, 0x9a, 0xaa, 0xb9, 0x9a, 0xa9, 0xb9,
    0xa8, 0x99, 0xba, 0xa9, 0x8a, 0xaa, 0x87, 0x8a, 0xac, 0xcc,
    0xaa, 0xaa, 0xa9, 0x9a, 0x99, 0x78, 0x78, 0xac, 0xcd, 0xbb,
    0x97, 0x60, 0xcb, 0x86, 0xbd, 0xaa, 0xba, 0x99, 0xb8, 0x9b,
    0xba, 0x99, 0x9a, 0x9a, 0x88, 0xa8, 0x88, 0x87, 0xa9, 0xaa,
    0xab, 0xac, 0xcb, 0xbc, 0xba, 0xaa, 0xa8, 0x89, 0x88, 0x79,
    0x9c, 0xcb, 0x99, 0x99, 0xa8, 0x89, 0x88, 0xaa, 0xaa, 0xbc,
    0xcc, 0xaa, 0xa9, 0x88, 0x86, 0x89, 0x88, 0xba, 0xbb, 0xbc,
    0xcb, 0x86, 0x79, 0x88, 0x78, 0x9b, 0xab, 0xbb, 0xc9, 0xac,
    0xa9, 0x97, 0xaa, 0x9a, 0x9a, 0xbb, 0xab, 0xa9, 0xab, 0xcc,
    0x97, 0x86, 0x66, 0x78, 0xaa, 0xaa, 0xbd, 0xba, 0xb9, 0xab,
    0xaa, 0xa9, 0xa8, 0xaa, 0xaa, 0x9a, 0x9a, 0x9a, 0xbb, 0xa8,
    0xab, 0xba, 0xbb, 0xa9, 0x9a, 0x90, 0x99, 0x9a, 0x99, 0x99,
    0x99, 0x9a, 0xa9, 0xa9, 0x99, 0xa9, 0xa9, 0x9a, 0xa9, 0x99,
    0x99, 0x9a, 0xa9, 0x9a, 0x9a, 0x99, 0xaa, 0x99, 0xa9, 0xaa,
    0xaa, 0x99, 0x99, 0x99, 0x99, 0xaa, 0x99, 0x9a, 0xaa, 0x99,
    0xaa, 0x99, 0xaa, 0x9a, 0xa9, 0x9a, 0x99, 0x9a, 0x9a, 0xaa,
    0xa9, 0xa9, 0xaa, 0x9a, 0xaa, 0x9a, 0xa9, 0x99, 0xa9, 0x99,
    0x99, 0xa9, 0xa9, 0x99, 0xaa, 0x99, 0x99, 0x9a, 0x99, 0x99,
    0x9a, 0xa9, 0xa9, 0x9a, 0xaa, 0xaa, 0xaa, 0xaa, 0xaa, 0xaa,
    0xaa, 0x99, 0x9a, 0xa9, 0x99, 0x99, 0xaa, 0xa9, 0x9a, 0xaa,
    0x99, 0xaa, 0x99, 0xa9, 0x99, 0x99, 0x99, 0x99, 0x99, 0xa0,
    0xbb, 0xb6, 0xbe, 0xda, 0x76, 0x89, 0x77, 0x78, 0x89, 0x99,
    0xaa, 0x9a, 0xbb, 0xcb, 0xbb, 0xcc, 0xa8, 0x89, 0x77, 0x67,
    0x78, 0x89, 0x88, 0xbc, 0xa9, 0xab, 0xba, 0xbb, 0xb9, 0x9a,
    0xaa, 0xbc, 0xbb, 0xcb, 0xcc, 0xb9, 0xa9, 0xaa, 0x9a, 0xa8,
    0x98, 0x9a, 0xa9, 0xa9, 0x88, 0xa9, 0xbb, 0x99, 0xb9, 0xab,
    0xba, 0x9b, 0x9a, 0xaa, 0xaa, 0x89, 0xab, 0xa9, 0x79, 0xab,
    0xaa, 0x9a, 0x99, 0xac, 0xab, 0xba, 0x88, 0x67, 0x55, 0x98,
    0x88, 0x9a, 0xc9, 0xaa, 0x89, 0x9b, 0xcd, 0xcf, 0xed, 0x9b,
    0x86, 0x76, 0x43, 0x35, 0x56, 0x67, 0x69, 0x88, 0x99, 0x9b,
    0xcd, 0xcd, 0xde, 0xe0, 0xc9, 0x78, 0x8c, 0xde, 0xec, 0xad,
    0xde, 0xec, 0xca, 0xab, 0x98, 0x77, 0x77, 0x68, 0x77, 0x78,
    0x77, 0x77, 0x88, 0x88, 0x99, 0x88, 0x99, 0x9a, 0x99, 0xa9,
    0x9b, 0xba, 0xa9, 0x98, 0xaa, 0x98, 0x9b, 0xab, 0xb9, 0x99,
    0xaa, 0xb8, 0x89, 0x9a, 0x99, 0xac, 0x7a, 0xaa, 0xba, 0xb9,
    0x9a, 0xaa, 0xaa, 0xa9, 0xaa, 0xab, 0x9a, 0xa9, 0x88, 0xb9,
    0xaa, 0xaa, 0x99, 0xb9, 0x9b, 0x88, 0x97, 0x9a, 0xa9, 0xba,
    0x9a, 0x88, 0x9c, 0xbb, 0xba, 0xaa, 0x89, 0x9b, 0x8c, 0x99,
    0xbc, 0xaa, 0xc9, 0x9b, 0xb9, 0x78, 0x89, 0x89, 0xaa, 0xcc,
    0xcb, 0x9b, 0x78, 0x88, 0x8b, 0xcc, 0xcc, 0x90, 0x8c, 0xb5,
    0x7c, 0xca, 0xab, 0xb9, 0x87, 0x88, 0x88, 0x88, 0x78, 0x86,
    0x66, 0x67, 0x88, 0x88, 0xaa, 0xba, 0x98, 0x88, 0x88, 0x9a,
    0x88, 0x88, 0x98, 0x89, 0x8a, 0x98, 0x89, 0xa8, 0x9b, 0xcc,
    0xbc, 0xba, 0xbc, 0xaa, 0xbc, 0xaa, 0xab, 0xaa, 0x98, 0x8a,
    0xbb, 0xba, 0xa9, 0xaa, 0x9a, 0xbc, 0xca, 0x9b, 0x99, 0xaa,
    0x9a, 0x99, 0xac, 0xcb, 0xab, 0xcc, 0xcc, 0xac, 0xcb, 0xcb,
    0xab, 0xcc, 0xca, 0xab, 0xba, 0xa9, 0xa9, 0xbb, 0xba, 0xab,
    0x9a, 0x99, 0xbc, 0x9a, 0xab, 0xa9, 0xaa, 0x99, 0xbb, 0x99,
    0xab, 0xc9, 0x98, 0x9a, 0xaa, 0x89, 0xcb, 0xaa, 0xbb, 0xdb,
    0xcc, 0xc0, 0x56, 0xc9, 0x69, 0xde, 0xcc, 0xa9, 0x88, 0x88,
    0x88, 0xaa, 0xa9, 0x88, 0x78, 0x77, 0x78, 0x9a, 0xbb, 0xcc,
    0xcb, 0xaa, 0xa9, 0x99, 0x99, 0xa9, 0xaa, 0xbb, 0xa9, 0x99,
    0x99, 0x88, 0x78, 0xaa, 0xaa, 0xbb, 0xbb, 0xbb, 0xab, 0xbc,
    0xcb, 0x9c, 0xbc, 0xab, 0x9a, 0x88, 0x98, 0x79, 0xaa, 0xba,
    0x9a, 0xba, 0x8a, 0xaa, 0x9b, 0xbb, 0xbb, 0xa9, 0x99, 0x7b,
    0xab, 0x9a, 0xba, 0xaa, 0x99, 0x99, 0xa9, 0xaa, 0xcb, 0x99,
    0xa8, 0xab, 0xab, 0xb9, 0x9a, 0xcc, 0xbb, 0x9b, 0x8a, 0x8b,
    0xba, 0xac, 0xcb, 0xaa, 0xb8, 0x98, 0xaa, 0x9a, 0x9a, 0x9b,
    0x98, 0x89, 0x88, 0x8a, 0x88, 0x80, 0xcd, 0x53, 0xde, 0xa9,
    0x89, 0xbb, 0xbb, 0xbb, 0xb9, 0x98, 0x99, 0x89, 0x88, 0x77,
    0x67, 0x77, 0x89, 0xbb, 0xbc, 0xaa, 0xbb, 0xbb, 0xbb, 0xbc,
    0xba, 0xaa, 0x9a, 0x99, 0x98, 0x99, 0x98, 0x99, 0x99, 0xaa,
    0xab, 0xab, 0xb9, 0x89, 0x99, 0x9a, 0x9a, 0xbb, 0xba, 0xbb,
    0xaa, 0x99, 0xaa, 0x99, 0x99, 0xbc, 0x9a, 0xaa, 0xa9, 0xb9,
    0x88, 0x78, 0x9b, 0xa8, 0xa8, 0x89, 0xba, 0xba, 0xa9, 0xaa,
    0x99, 0xa9, 0xaa, 0xab, 0xac, 0xba, 0xa9, 0x99, 0xba, 0x88,
    0xba, 0x99, 0x79, 0x78, 0x9b, 0xba, 0xaa, 0x9a, 0xb8, 0x99,
    0x99, 0x89, 0x99, 0x88, 0x9a, 0xaa, 0xaa, 0xbc, 0xbd, 0xd0,
    0xb5, 0x9a, 0xd9, 0x75, 0x78, 0x67, 0x89, 0x8a, 0x9a, 0xab,
    0xa8, 0x88, 0xa9, 0x89, 0xa9, 0x99, 0xaa, 0xbc, 0xcc, 0xcc,
    0xbb, 0xbc, 0xcc, 0xbb, 0xba, 0xa9, 0x9a, 0xbb, 0xa9, 0x99,
    0x87, 0x87, 0x77, 0x89, 0x88, 0x88, 0x99, 0x78, 0x77, 0x9a,
    0x88, 0x98, 0xaa, 0xab, 0xb9, 0xac, 0xbb, 0xaa, 0xa9, 0xab,
    0xbb, 0x9a, 0xbc, 0x9b, 0xab, 0xaa, 0xab, 0x9b, 0x9a, 0x9c,
    0xa9, 0x87, 0x8a, 0x99, 0x89, 0xb8, 0x77, 0x88, 0x9b, 0xac,
    0xb9, 0x99, 0xab, 0xcb, 0xba, 0xab, 0xba, 0xab, 0xaa, 0xa8,
    0xb8, 0xab, 0xa9, 0x79, 0xaa, 0xa9, 0x8a, 0x9a, 0xca, 0x99,
    0xab, 0xac, 0xba, 0xa0, 0xa7, 0x78, 0x76, 0x79, 0xbc, 0x8a,
    0xbb, 0xbb, 0xba, 0xbc, 0xbc, 0xbc, 0xaa, 0xb9, 0x87, 0x77,
    0x77, 0x87, 0x77, 0x88, 0x88, 0x89, 0x89, 0xab, 0xba, 0xa9,
    0x9c, 0xba, 0x98, 0x89, 0x9b, 0xcc, 0xab, 0xcc, 0xbb, 0xbc,
    0xcb, 0xbb, 0x8a, 0xab, 0x9a, 0xaa, 0xa9, 0x9a, 0x87, 0x8b,
    0xa8, 0x87, 0xab, 0xba, 0x99, 0x98, 0x7a, 0xa9, 0x88, 0x89,
    0xab, 0xba, 0xa9, 0xab, 0x9b, 0xcc, 0xbc, 0xcc, 0xcc, 0xa8,
    0x78, 0xbb, 0x77, 0x89, 0x8b, 0x99, 0x99, 0xaa, 0xab, 0xcc,
    0xc9, 0xa7, 0x78, 0xbb, 0x89, 0x89, 0x98, 0x9a, 0xaa, 0xb9,
    0x9a, 0x99, 0x99, 0x88, 0x77, 0x97, 0x67, 0x70, 0x78, 0x87,
    0x45, 0x8b, 0xde, 0xdc, 0xdc, 0xbb, 0xaa, 0x89, 0xa9, 0x9a,
    0x98, 0x77, 0x88, 0x9a, 0xbd, 0xdd, 0xcb, 0xba, 0xa9, 0x89,
    0x8a, 0x9a, 0xaa, 0xab, 0xbb, 0xba, 0x98, 0x99, 0xab, 0xab,
    0xaa, 0xaa, 0xa8, 0x9a, 0x88, 0x89, 0x99, 0xbb, 0xbb, 0xbc,
    0xba, 0xb8, 0x8a, 0x88, 0xa9, 0x9b, 0xbc, 0x97, 0x79, 0x86,
    0x79, 0xbc, 0x96, 0x67, 0x75, 0x57, 0x77, 0x79, 0x9a, 0xba,
    0xaa, 0xa9, 0xab, 0xcc, 0xba, 0xbd, 0xbb, 0xbc, 0xbb, 0xaa,
    0xaa, 0xa9, 0x8a, 0x89, 0x98, 0x8a, 0xab, 0xb8, 0x79, 0xaa,
    0xa9, 0xaa, 0xab, 0xb9, 0x99, 0xaa, 0x88, 0x89, 0x88, 0x9a,
    0xab, 0xc0, 0xda, 0xad, 0x89, 0xb8, 0x8a, 0xba, 0x97, 0x9c,
    0xab, 0xba, 0xcc, 0xbb, 0xbb, 0xa9, 0x87, 0x68, 0x76, 0x89,
    0x9a, 0xcc, 0xcb, 0xbc, 0xbb, 0xaa, 0xa9, 0xaa, 0x99, 0x9a,
    0x98, 0x89, 0x89, 0xab, 0x9b, 0xa9, 0x89, 0xaa, 0x99, 0x99,
    0x89, 0xa9, 0xa8, 0x89, 0x98, 0x98, 0x98, 0x98, 0x99, 0x99,
    0x9b, 0xaa, 0xa9, 0x67, 0x9b, 0xba, 0xad, 0x97, 0x78, 0x9c,
    0xbb, 0xaa, 0x9b, 0x99, 0xba, 0x8a, 0xaa, 0x7b, 0x98, 0x7a,
    0xbc, 0xac, 0xa8, 0x99, 0x9a, 0xac, 0xa9, 0x98, 0xaa, 0xac,
    0xbb, 0x8a, 0x89, 0xb9, 0x79, 0x8a, 0x9a, 0xaa, 0x8a, 0xbb,
    0xaa, 0x99, 0xab, 0x9a, 0xa9, 0x70, 0xdd, 0x88, 0x51, 0x46,
    0x68, 0x8a, 0x9b, 0xbb, 0x87, 0x87, 0x87, 0x67, 0x78, 0x79,
    0x9a, 0xbd, 0xcc, 0xcb, 0xba, 0xa9, 0x9b, 0xa9, 0x9b, 0xab,
    0xab, 0xbb, 0xa9, 0x98, 0x88, 0x79, 0xaa, 0x98, 0x89, 0x88,
    0x98, 0xaa, 0xaa, 0xab, 0xaa, 0x9b, 0xab, 0xab, 0xbc, 0xb9,
    0xb8, 0x9a, 0x9a, 0xbb, 0xb9, 0xb9, 0x9b, 0x8a, 0xab, 0xa9,
    0x9a, 0x9a, 0xa9, 0x8a, 0xab, 0x99, 0x9b, 0x99, 0x79, 0xb9,
    0xab, 0x87, 0x77, 0xaa, 0xc9, 0xaa, 0xaa, 0xbb, 0xb8, 0x79,
    0x9a, 0x99, 0x88, 0xbb, 0xcc, 0xda, 0xab, 0xbb, 0xba, 0xaa,
    0xba, 0xaa, 0x89, 0x78, 0x99, 0x9a, 0xaa, 0xbc, 0xa9, 0x80,
    0xd8, 0x78, 0x78, 0xbb, 0x77, 0x9b, 0x99, 0xaa, 0xcb, 0xaa,
    0xb9, 0x9a, 0x9a, 0xaa, 0x9a, 0xab, 0xbb, 0xaa, 0x88, 0x9a,
    0xab, 0xba, 0xa8, 0x98, 0x89, 0x99, 0xaa, 0xac, 0xba, 0xbb,
    0x9a, 0xac, 0x88, 0x99, 0xa8, 0xba, 0x9a, 0xb9, 0x8a, 0x88,
    0x98, 0x8a, 0xa9, 0x88, 0xa9, 0xb9, 0x99, 0x88, 0xbb, 0xbc,
    0xcc, 0xcb, 0xaa, 0xa8, 0x9a, 0x89, 0x77, 0x9b, 0x99, 0x88,
    0xab, 0x99, 0x98, 0x9b, 0xa6, 0x89, 0x78, 0xbb, 0xaa, 0xca,
    0xaa, 0xa8, 0x67, 0x67, 0x77, 0x89, 0xcb, 0x99, 0xac, 0xcc,
    0xbb, 0xa9, 0x88, 0x78, 0xab, 0xca, 0x99, 0x88, 0x88, 0x99,
    0x99, 0x98, 0x88, 0x80, 0x69, 0xdd, 0x88, 0xb9, 0x79, 0xac,
    0xcb, 0xba, 0xa9, 0x97, 0x88, 0x77, 0x78, 0x89, 0x89, 0xaa,
    0xba, 0xba, 0x89, 0x88, 0x99, 0xbb, 0xab, 0xbc, 0xcb, 0xbc,
    0xba, 0xac, 0xca, 0xa9, 0x99, 0xba, 0xaa, 0xa9, 0x99, 0xa9,
    0xba, 0x97, 0x99, 0x99, 0x78, 0x99, 0x8a, 0xac, 0xcc, 0xca,
    0x76, 0x78, 0x89, 0xaa, 0xcb, 0xbc, 0xcb, 0x8a, 0xa9, 0xcc,
    0xcb, 0xa8, 0x88, 0x77, 0x66, 0x67, 0x86, 0x97, 0x77, 0x87,
    0x8a, 0xaa, 0xcb, 0xbb, 0xab, 0xba, 0xab, 0xab, 0xbc, 0xcb,
    0xaa, 0xaa, 0xbb, 0x89, 0x99, 0x98, 0x99, 0xbb, 0xcc, 0xcb,
    0xbb, 0xbb, 0x89, 0x9b, 0xb9, 0xaa, 0xaa, 0x90, 0xcd, 0xb9,
    0x77, 0x87, 0x8b, 0xbc, 0xa9, 0xaa, 0x99, 0x88, 0x87, 0x77,
    0x78, 0x9a, 0xcc, 0xaa, 0xa9, 0xaa, 0xaa, 0xbb, 0xba, 0xbc,
    0xaa, 0xa8, 0x88, 0x88, 0x88, 0x9b, 0xca, 0x9b, 0xaa, 0xaa,
    0xaa, 0xb9, 0xbb, 0xcc, 0xcb, 0xb9, 0x88, 0xa9, 0xa8, 0x98,
    0x89, 0x98, 0x88, 0xa9, 0xaa, 0xa8, 0x88, 0x9a, 0xaa, 0x9a,
    0x8a, 0x68, 0xaa, 0x8a, 0xbb, 0x8b, 0xa9, 0x89, 0xa8, 0x88,
    0xca, 0x9a, 0xb8, 0x8a, 0xaa, 0xab, 0xc9, 0xbb, 0x89, 0x88,
    0xa8, 0x7b, 0xbc, 0x9a, 0xaa, 0xaa, 0x97, 0xab, 0xb8, 0xa9,
    0x9a, 0x99, 0xab, 0xa9, 0xaa, 0xc9, 0x99, 0x99, 0xaa, 0x87,
    0x87, 0x70, 0xb6, 0x7d, 0xc8, 0x79, 0xa8, 0x77, 0x87, 0x78,
    0x9a, 0xaa, 0xba, 0xaa, 0xaa, 0xba, 0xaa, 0x98, 0x98, 0x99,
    0x99, 0xbb, 0xbc, 0xcc, 0xaa, 0xa9, 0xab, 0xbc, 0xba, 0xaa,
    0x87, 0x7a, 0xab, 0xbb, 0xca, 0x99, 0xa9, 0xab, 0xa9, 0x9a,
    0xaa, 0xba, 0xbb, 0xb9, 0x66, 0x66, 0x67, 0x8a, 0xab, 0xbb,
    0xcb, 0xbb, 0xbc, 0xb9, 0xba, 0x89, 0x99, 0xaa, 0x8a, 0xbb,
    0x9a, 0x9b, 0xa8, 0xac, 0x9a, 0x89, 0xbb, 0x86, 0x68, 0x89,
    0xca, 0xa7, 0x9a, 0xa9, 0xaa, 0xbd, 0xca, 0x89, 0xa8, 0x6b,
    0x64, 0x47, 0x99, 0x99, 0xbc, 0x88, 0x98, 0xac, 0xcb, 0xb9,
    0xed, 0xda, 0x79, 0x66, 0x66, 0x60, 0x9b, 0xbd, 0xbc, 0xed,
    0xdb, 0xc9, 0x88, 0x97, 0x88, 0x87, 0x86, 0x74, 0x75, 0x34,
    0x65, 0x68, 0xaa, 0xcc, 0xcb, 0xa8, 0x9a, 0xb8, 0x99, 0xbb,
    0xba, 0xaa, 0xab, 0xa9, 0xba, 0xba, 0x87, 0x9a, 0xaa, 0xaa,
    0xa9, 0xab, 0xba, 0xaa, 0x99, 0x99, 0xa9, 0x99, 0xba, 0xba,
    0xa7, 0xa9, 0x9a, 0x9a, 0x99, 0x88, 0xaa, 0xb9, 0x99, 0xb9,
    0xab, 0xab, 0xaa, 0xab, 0x97, 0xbb, 0xbb, 0xab, 0xc9, 0xa9,
    0x9a, 0xaa, 0xc9, 0xb9, 0xa9, 0xaa, 0xa9, 0xaa, 0x6b, 0x89,
    0x7a, 0xcb, 0x7b, 0x65, 0x79, 0x76, 0x8b, 0x98, 0x88, 0xa9,
    0xaa, 0xba, 0xaa, 0x99, 0x9b, 0xbc, 0xb9, 0x99, 0xbb, 0xc0,
    0xd8, 0x97, 0xab, 0xab, 0x88, 0xa9, 0xa8, 0xab, 0xbb, 0xb9,
    0xa9, 0xa9, 0x98, 0x98, 0x99, 0x88, 0x97, 0x88, 0x99, 0x9a,
    0xbb, 0xdc, 0xcd, 0xca, 0xbc, 0xcb, 0xba, 0x9b, 0xbb, 0xaa,
    0xab, 0x99, 0x8a, 0x99, 0x87, 0x99, 0xb9, 0x98, 0x98, 0xaa,
    0xa9, 0xbb, 0xba, 0x89, 0x89, 0xba, 0x89, 0xa8, 0x99, 0xa8,
    0x89, 0xaa, 0x8a, 0x99, 0x68, 0xbb, 0xa9, 0xbb, 0xba, 0xba,
    0x9a, 0x89, 0x98, 0x99, 0xaa, 0xab, 0xaa, 0x9a, 0xa9, 0x9a,
    0xab, 0xa9, 0xa8, 0x99, 0x76, 0x88, 0xba, 0xab, 0x9a, 0xbc,
    0xa9, 0x98, 0x89, 0x99, 0x99, 0x99, 0x9b, 0xb9, 0x89, 0x89,
    0xaa, 0xba, 0xbb, 0xa0, 0xc7, 0xbd, 0xed, 0xdd, 0xa8, 0x89,
    0x97, 0x88, 0x89, 0xaa, 0xab, 0xab, 0xaa, 0x99, 0x88, 0x89,
    0x98, 0x8a, 0xa9, 0x9a, 0xab, 0xaa, 0xbb, 0xba, 0xac, 0xbb,
    0xa9, 0xab, 0xaa, 0xa9, 0xab, 0xaa, 0xab, 0xba, 0xac, 0xaa,
    0xb9, 0x9a, 0x98, 0x8a, 0x9a, 0x8a, 0xa8, 0x99, 0xab, 0x9b,
    0xba, 0x89, 0xb8, 0x79, 0x9a, 0xb9, 0xaa, 0x9b, 0xac, 0xba,
    0xac, 0xc9, 0xa9, 0xb8, 0x9a, 0x9a, 0x99, 0x89, 0x77, 0xac,
    0xaa, 0x8b, 0xab, 0x89, 0xb9, 0x9a, 0xaa, 0x98, 0x76, 0x78,
    0xaa, 0x8c, 0xba, 0xab, 0xcb, 0xca, 0xa9, 0x9a, 0x98, 0x77,
    0x98, 0x99, 0xaa, 0x9b, 0xba, 0x99, 0xab, 0xc0, 0xca, 0xab,
    0xb9, 0x99, 0xa9, 0x98, 0x88, 0x99, 0xab, 0xab, 0x9b, 0xab,
    0xb9, 0xbb, 0x89, 0x98, 0x99, 0xbb, 0xba, 0xba, 0xab, 0xa9,
    0x78, 0x8a, 0x87, 0x78, 0xbd, 0xbb, 0x87, 0x78, 0x79, 0xbb,
    0x99, 0xab, 0x98, 0xac, 0x67, 0x76, 0x67, 0x55, 0x56, 0x7a,
    0xbb, 0xcc, 0xbb, 0xcd, 0xcc, 0xbb, 0xbc, 0xb7, 0x7c, 0xc7,
    0x98, 0xaa, 0x98, 0xaa, 0xd8, 0x8c, 0xba, 0x99, 0xbb, 0x64,
    0x89, 0xaa, 0x78, 0x9b, 0xcd, 0xc9, 0xbb, 0xbb, 0xaa, 0x77,
    0xa9, 0x99, 0x9a, 0xa9, 0xbb, 0xbb, 0x99, 0xbc, 0xca, 0x97,
    0x78, 0xab, 0x9a, 0xaa, 0x8a, 0x98, 0x88, 0x77, 0xac, 0xcc,
    0xcb, 0x90, 0xa9, 0x99, 0x89, 0x65, 0x66, 0x76, 0x88, 0x79,
    0xbb, 0xab, 0xbb, 0xbb, 0xb9, 0x98, 0x77, 0x66, 0x66, 0x68,
    0x89, 0x9a, 0xa8, 0x9a, 0xbb, 0xab, 0x99, 0x9b, 0xaa, 0xbb,
    0xa9, 0xa9, 0x99, 0x9b, 0xa9, 0x89, 0x89, 0xbc, 0xbc, 0xcc,
    0xcc, 0xbb, 0xba, 0xbc, 0xba, 0xba, 0x9b, 0xbb, 0xcc, 0xba,
    0x99, 0x99, 0x89, 0xaa, 0x9a, 0xab, 0xab, 0xaa, 0xcc, 0xaa,
    0xb8, 0x88, 0x98, 0x68, 0x7a, 0x96, 0x88, 0x8b, 0xcd, 0xcb,
    0xcb, 0xab, 0xca, 0xba, 0x96, 0x36, 0x77, 0x89, 0x99, 0xab,
    0xac, 0xba, 0xbb, 0xab, 0x9c, 0xa9, 0x88, 0x8a, 0x78, 0x89,
    0x98, 0x88, 0x8a, 0xa9, 0xbb, 0xb0, 0xbb, 0xc9, 0xcc, 0x77,
    0x76, 0x88, 0x97, 0x88, 0x8a, 0x99, 0x99, 0x99, 0x99, 0xb8,
    0x88, 0x75, 0x66, 0x67, 0x8a, 0xbd, 0xcd, 0xdd, 0xdc, 0xbb,
    0xa9, 0x99, 0x89, 0xab, 0xbb, 0x9a, 0xaa, 0xaa, 0xa9, 0xab,
    0xaa, 0xab, 0xbb, 0xa9, 0xa9, 0xb9, 0xa9, 0xcc, 0xbb, 0xbb,
    0x99, 0x87, 0x77, 0x9c, 0xa9, 0x9a, 0x9b, 0xcb, 0x9a, 0xaa,
    0x99, 0x77, 0x8a, 0x98, 0x99, 0x89, 0xaa, 0xcb, 0xab, 0xaa,
    0xa9, 0x9a, 0x8a, 0xa8, 0xaa, 0xa8, 0x9a, 0xa9, 0xcb, 0xbc,
    0xab, 0xb9, 0xca, 0xcc, 0xca, 0xbb, 0xba, 0xaa, 0x9b, 0x9b,
    0x9b, 0xa9, 0xaa, 0xa8, 0xaa, 0xa8, 0xab, 0x98, 0xa9, 0x70,
    0x99, 0x99, 0xa9, 0x99, 0xaa, 0x99, 0xa9, 0xaa, 0xa9, 0x99,
    0xaa, 0xaa, 0x9a, 0x99, 0xa9, 0xa9, 0xa9, 0x99, 0xaa, 0xaa,
    0x99, 0xa9, 0x99, 0x99, 0x99, 0xa9, 0xaa, 0x9a, 0xa9, 0x9a,
    0xaa, 0x9a, 0x9a, 0xaa, 0x99, 0x9a, 0x9a, 0x99, 0xaa, 0xa9,
    0xa9, 0xaa, 0x99, 0xa9, 0x9a, 0x99, 0x99, 0x9a, 0x99, 0x9a,
    0x99, 0xa9, 0xaa, 0xaa, 0xa9, 0x9a, 0xa9, 0x9a, 0x9a, 0x9a,
    0x9a, 0xaa, 0x9a, 0x9a, 0x9a, 0x99, 0x9a, 0x99, 0xa9, 0xa9,
    0xa9, 0xa9, 0xa9, 0xaa, 0x99, 0x99, 0x99, 0xaa, 0x99, 0x9a,
    0x9a, 0xaa, 0xaa, 0xaa, 0x99, 0x9a, 0x9a, 0xaa, 0xa9, 0xa9,
    0xa9, 0x99, 0x9a, 0xa0, 0xac, 0x95, 0x4c, 0xdc, 0x77, 0x68,
    0x66, 0x77, 0x67, 0x79, 0x9c, 0x9b, 0x9a, 0xba, 0xbb, 0xbb,
    0xac, 0xbc, 0xba, 0xbb, 0xa9, 0x87, 0x78, 0x78, 0x77, 0x8a,
    0x99, 0x98, 0x88, 0x89, 0xab, 0xbb, 0xcb, 0xaa, 0xaa, 0xb9,
    0x88, 0xbc, 0x99, 0xcc, 0xbb, 0xaa, 0x9c, 0xca, 0xab, 0xa9,
    0x78, 0xa8, 0x8b, 0xcb, 0xaa, 0xab, 0xa9, 0xab, 0xa9, 0x9b,
    0xca, 0x9b, 0xa9, 0x89, 0x8a, 0x9a, 0x8b, 0xbb, 0x9a, 0xa9,
    0x8b, 0xcb, 0x8a, 0x79, 0xb6, 0x66, 0x99, 0xaa, 0xaa, 0xaa,
    0x9a, 0xbb, 0x88, 0x89, 0x8a, 0x9b, 0xaa, 0x98, 0x99, 0x99,
    0x98, 0x89, 0xab, 0x99, 0xaa, 0x9b, 0xbc, 0xb0, 0x9c, 0x74,
    0x58, 0xbb, 0xcd, 0xdb, 0xba, 0xab, 0xba, 0xa9, 0xac, 0xcd,
    0xcc, 0xca, 0xb9, 0x98, 0x9a, 0xa9, 0x98, 0x87, 0x89, 0x9b,
    0xab, 0xab, 0xcb, 0xba, 0x87, 0x88, 0x9a, 0xab, 0x99, 0x98,
    0x89, 0x9a, 0xb9, 0xa9, 0x9b, 0x99, 0x8a, 0x98, 0x78, 0x89,
    0x9b, 0xbb, 0xb9, 0xa9, 0xaa, 0x9a, 0xa9, 0xa9, 0x9b, 0x98,
    0x9b, 0xaa, 0x99, 0x9c, 0xaa, 0x99, 0x8a, 0xa8, 0x99, 0xa8,
    0x9b, 0xa8, 0xac, 0xbc, 0xcb, 0xab, 0x98, 0x88, 0x99, 0xaa,
    0xcb, 0xba, 0x9b, 0xc8, 0xb9, 0xb9, 0x9a, 0x89, 0x8a, 0xcc,
    0xbb, 0x88, 0x88, 0x89, 0xaa, 0xa9, 0x9a, 0xa9, 0x9b, 0xaa,
    0xa9, 0x90, 0x99, 0x99, 0x99, 0xa9, 0x99, 0x9a, 0x9a, 0x9a,
    0x9a, 0xaa, 0xaa, 0x99, 0xa9, 0xaa, 0x99, 0xa9, 0xa9, 0xa9,
    0x9a, 0x9a, 0x9a, 0x9a, 0x99, 0x99, 0xaa, 0x9a, 0x9a, 0x99,
    0xa9, 0x9a, 0x99, 0xa9, 0xaa, 0xaa, 0x99, 0xa9, 0xaa, 0x9a,
    0x9a, 0xaa, 0x99, 0xa9, 0x99, 0xaa, 0x9a, 0x99, 0x9a, 0x99,
    0x99, 0xaa, 0x9a, 0x99, 0x99, 0xaa, 0xaa, 0xa9, 0xa9, 0xa9,
    0xaa, 0xaa, 0x99, 0x9a, 0x9a, 0x9a, 0x99, 0xaa, 0xaa, 0x9a,
    0x9a, 0x99, 0x9a, 0x99, 0xa9, 0x9a, 0xaa, 0xa9, 0xa9, 0xaa,
    0x99, 0x9a, 0x99, 0x99, 0x99, 0x9a, 0x99, 0x99, 0xaa, 0xa9,
    0xa9, 0x9a, 0xa9, 0x99, 0x9a, 0x90, 0x6c, 0xe6, 0x7a, 0xad,
    0xec, 0xaa, 0xcb, 0xa9, 0x9a, 0x87, 0x87, 0x77, 0x77, 0x89,
    0x9a, 0xaa, 0xbb, 0xcd, 0xcc, 0xbb, 0xba, 0x9a, 0xa7, 0x8a,
    0x99, 0x8a, 0xbb, 0xaa, 0xa9, 0x99, 0x9a, 0xa9, 0xb9, 0x99,
    0x8a, 0x9a, 0xba, 0xb8, 0x87, 0x67, 0x88, 0x9a, 0xbb, 0xcc,
    0xba, 0xcc, 0xbb, 0xab, 0x9b, 0xb9, 0x9b, 0xa9, 0xaa, 0xab,
    0x97, 0xaa, 0x99, 0xa9, 0x99, 0xa9, 0xaa, 0xa9, 0xbb, 0x7a,
    0xab, 0xba, 0x78, 0xac, 0xb9, 0xa9, 0x89, 0xa9, 0xa9, 0xa8,
    0x9b, 0xa9, 0x9a, 0x9b, 0x9b, 0xba, 0xab, 0xba, 0xa9, 0xa9,
    0x98, 0x78, 0x9a, 0x98, 0x99, 0x89, 0x98, 0x89, 0x99, 0xb0,
    0xdc, 0x42, 0x77, 0x88, 0x77, 0x89, 0xac, 0xcc, 0xbc, 0xba,
    0xaa, 0xbb, 0xaa, 0xba, 0xab, 0xaa, 0xbc, 0xba, 0xa8, 0x77,
    0x77, 0x78, 0x88, 0xaa, 0x89, 0xba, 0xab, 0xbb, 0x9a, 0xa8,
    0x7a, 0xba, 0x88, 0x88, 0x8a, 0xc8, 0x88, 0xba, 0xa9, 0x99,
    0xaa, 0x89, 0x8a, 0xac, 0xcb, 0xbb, 0xbb, 0xba, 0x89, 0x9a,
    0xa8, 0x89, 0x79, 0xaa, 0xcb, 0xb9, 0x99, 0x9b, 0xcb, 0x9a,
    0xa8, 0x8a, 0xbb, 0xa8, 0xa9, 0x88, 0x89, 0xaa, 0xab, 0xca,
    0xaa, 0xaa, 0x98, 0xa7, 0x89, 0xbb, 0x87, 0x89, 0xac, 0xba,
    0xac, 0xaa, 0x99, 0x99, 0x99, 0x9a, 0xaa, 0xaa, 0xaa, 0xaa,
    0xbb, 0xcb, 0xbb, 0xa0, 0x99, 0x86, 0x58, 0xcc, 0xcd, 0xdc,
    0xc9, 0x98, 0x98, 0x89, 0xab, 0xbc, 0xbc, 0xbb, 0xa9, 0x98,
    0x88, 0x98, 0x9b, 0xcc, 0xcc, 0xba, 0xaa, 0x89, 0x86, 0x78,
    0x9a, 0xbc, 0xcb, 0xa8, 0x98, 0x99, 0xcb, 0xaa, 0xba, 0x9a,
    0xb9, 0x88, 0x9a, 0xb8, 0xab, 0xa8, 0x77, 0x77, 0x76, 0x87,
    0x87, 0x78, 0x89, 0x97, 0x8b, 0xcc, 0xb9, 0xbb, 0xcc, 0xbc,
    0xcb, 0xbb, 0xdb, 0xbb, 0xba, 0xbb, 0x98, 0x76, 0x99, 0xaa,
    0x99, 0x9b, 0xcc, 0xac, 0xbb, 0xba, 0xa8, 0x88, 0x77, 0x97,
    0x88, 0x8b, 0xab, 0xbc, 0xba, 0xdc, 0x98, 0x89, 0x99, 0x99,
    0x8b, 0xb8, 0x99, 0x99, 0xaa, 0x98, 0xa9, 0xa0, 0xc9, 0x57,
    0x89, 0xb8, 0x7a, 0xcb, 0x98, 0x8a, 0x99, 0xa9, 0xaa, 0xab,
    0xbc, 0xcb, 0xaa, 0xaa, 0xa9, 0x98, 0x88, 0x99, 0x99, 0xaa,
    0xa9, 0x99, 0xb9, 0x9c, 0xbb, 0xac, 0xba, 0x98, 0x98, 0xaa,
    0xa9, 0xa8, 0x89, 0xa9, 0xaa, 0xaa, 0xab, 0xaa, 0x98, 0x9b,
    0x97, 0x78, 0x8a, 0xdb, 0xa9, 0x86, 0x77, 0x77, 0xab, 0xbb,
    0xac, 0xb8, 0x99, 0xba, 0xaa, 0xb9, 0xab, 0x99, 0xa9, 0x9b,
    0xba, 0xb9, 0xb9, 0xbb, 0xa9, 0xbc, 0xaa, 0xaa, 0xaa, 0xab,
    0xaa, 0x9a, 0xaa, 0xb9, 0xb9, 0xab, 0xba, 0xa9, 0x9a, 0xa9,
    0xaa, 0x8a, 0x89, 0x98, 0x9a, 0xa9, 0x9b, 0xaa, 0xba, 0xa8,
    0x89, 0xb0, 0x57, 0x97, 0xdd, 0x76, 0x87, 0x44, 0x68, 0xa9,
    0xbb, 0xbb, 0xab, 0xbb, 0x9a, 0x9a, 0x99, 0xaa, 0xbb, 0xcc,
    0xdd, 0xdc, 0xcb, 0xaa, 0x9a, 0x9a, 0xab, 0x98, 0xaa, 0xaa,
    0x98, 0x9a, 0x8a, 0xa9, 0xaa, 0x9a, 0x9a, 0x9b, 0xba, 0x9a,
    0xa9, 0x9a, 0x99, 0x87, 0x8b, 0xb9, 0x9c, 0xb9, 0x99, 0x78,
    0x7a, 0xab, 0xab, 0xaa, 0xba, 0x99, 0xaa, 0x98, 0xaa, 0x8c,
    0x98, 0x7a, 0xab, 0xaa, 0x9a, 0xaa, 0x9a, 0xbc, 0x99, 0x88,
    0x99, 0x9a, 0xa9, 0x98, 0x88, 0x88, 0x99, 0x8a, 0xaa, 0x99,
    0xaa, 0xb9, 0xbb, 0xab, 0xaa, 0xba, 0xbb, 0xaa, 0xaa, 0x89,
    0xba, 0xaa, 0x99, 0xbb, 0xbb, 0xc0, 0xa9, 0x9a, 0x9a, 0x99,
    0x9a, 0xa9, 0x9a, 0x99, 0x99, 0xa9, 0x99, 0xa9, 0xa9, 0x99,
    0x9a, 0x9a, 0x9a, 0xaa, 0xa9, 0x99, 0x99, 0x9a, 0x99, 0x99,
    0x9a, 0x99, 0x9a, 0xaa, 0x9a, 0x9a, 0x99, 0x99, 0xa9, 0x99,
    0xa9, 0xa9, 0x99, 0x99, 0xaa, 0xa9, 0xa9, 0xa9, 0x99, 0xa9,
    0xa9, 0xaa, 0x99, 0x9a, 0x99, 0xaa, 0xaa, 0xa9, 0x99, 0xa9,
    0xa9, 0xaa, 0x99, 0x9a, 0xaa, 0x99, 0x9a, 0xa9, 0x9a, 0xa9,
    0xaa, 0xaa, 0xa9, 0x99, 0xa9, 0xa9, 0xaa, 0xa9, 0x9a, 0xa9,
    0x99, 0xa9, 0x99, 0xa9, 0x9a, 0xaa, 0x99, 0xaa, 0xa9, 0x99,
    0xaa, 0xaa, 0x9a, 0xaa, 0xa9, 0xa9, 0x99, 0x99, 0xaa, 0xa0,
    0xbb, 0xc8, 0x98, 0x79, 0xa9, 0x99, 0xa9, 0xaa, 0xba, 0xab,
    0xac, 0xab, 0x99, 0xb9, 0x9a, 0x88, 0x89, 0x98, 0x99, 0xba,
    0xa9, 0x8a, 0x98, 0x9a, 0xb9, 0x89, 0x98, 0x89, 0x9a, 0x9a,
    0x9c, 0x98, 0x88, 0x88, 0x77, 0x88, 0x79, 0xbc, 0xba, 0xba,
    0xaa, 0x97, 0x78, 0xa8, 0x76, 0x89, 0xba, 0x88, 0xaa, 0xbc,
    0xab, 0xde, 0xdc, 0x9b, 0xbb, 0xdc, 0xca, 0xbc, 0x9a, 0xaa,
    0x9a, 0xc8, 0xab, 0x99, 0xaa, 0x88, 0x8c, 0xab, 0xa9, 0xa9,
    0xab, 0x99, 0xb7, 0x77, 0x77, 0x56, 0xa9, 0xcd, 0xa7, 0x9a,
    0x89, 0x78, 0x8a, 0xa9, 0x88, 0x9a, 0x7a, 0xb7, 0x66, 0x56,
    0xab, 0xa8, 0x78, 0x80, 0x5a, 0xfc, 0x89, 0x8a, 0xba, 0xaa,
    0xab, 0xa8, 0xaa, 0x98, 0x98, 0x97, 0x87, 0x77, 0x89, 0xaa,
    0xac, 0xcc, 0xcb, 0xba, 0xaa, 0xaa, 0xa8, 0xab, 0xab, 0xba,
    0x99, 0xa8, 0x88, 0x9a, 0x99, 0x98, 0x99, 0x9b, 0x99, 0x99,
    0xac, 0xdc, 0xbb, 0xbb, 0xbb, 0x99, 0xab, 0xab, 0x9a, 0x8a,
    0xaa, 0x99, 0x8a, 0x99, 0x9a, 0xb9, 0xa9, 0xaa, 0x99, 0x9a,
    0x89, 0xbb, 0xaa, 0x99, 0x98, 0x9b, 0xb8, 0x9a, 0xa9, 0x99,
    0x9b, 0xba, 0xa8, 0xaa, 0xa9, 0xbb, 0xab, 0xa8, 0x98, 0x9a,
    0xbb, 0xaa, 0xbd, 0xb9, 0xba, 0xaa, 0xc9, 0x96, 0x76, 0x77,
    0x68, 0x78, 0x79, 0x97, 0x55, 0x57, 0x67, 0x70, 0x8a, 0xa7,
    0xdc, 0xab, 0xbb, 0xab, 0xbc, 0xa9, 0xaa, 0xb9, 0x9a, 0xba,
    0xab, 0xba, 0xbb, 0xba, 0xab, 0xa9, 0xab, 0xaa, 0xbc, 0xcc,
    0xca, 0xac, 0xab, 0xab, 0xa9, 0xa9, 0x88, 0x98, 0xa9, 0xaa,
    0x98, 0x98, 0x8a, 0x89, 0x89, 0x88, 0x76, 0x99, 0xc8, 0x85,
    0x47, 0x67, 0x79, 0x8d, 0x35, 0x66, 0x8a, 0x4b, 0xba, 0x9b,
    0x94, 0x49, 0xa7, 0xbc, 0xa6, 0x78, 0x67, 0xaa, 0xb8, 0x9d,
    0xa7, 0x7a, 0x9c, 0xd3, 0x77, 0x97, 0x65, 0x77, 0x76, 0x65,
    0x66, 0x77, 0x88, 0x76, 0x77, 0xaa, 0xcd, 0xdc, 0xb9, 0x9a,
    0xba, 0xa8, 0x98, 0x97, 0x87, 0x89, 0xab, 0xca, 0xba, 0xa9,
    0x9a, 0xb0, 0xbb, 0x99, 0xcc, 0x86, 0x8d, 0xed, 0xca, 0x89,
    0xb8, 0x89, 0xb7, 0x77, 0x98, 0x58, 0x88, 0x9d, 0xbb, 0xba,
    0x9a, 0x98, 0x88, 0x77, 0x67, 0x75, 0x55, 0x87, 0x8b, 0xcb,
    0x9a, 0xcc, 0xab, 0xaa, 0x9a, 0x99, 0x9b, 0xa9, 0x99, 0xb9,
    0xab, 0x9a, 0x99, 0xba, 0x9b, 0xab, 0xaa, 0x99, 0xb8, 0x99,
    0xaa, 0x99, 0xa9, 0x9b, 0xc7, 0x77, 0x77, 0x97, 0xa6, 0x79,
    0xca, 0x89, 0x60, 0x24, 0x66, 0x66, 0x66, 0x66, 0x66, 0x66,
    0x66, 0x66, 0x78, 0x99, 0x99, 0x89, 0x99, 0x99, 0x88, 0x99,
    0x98, 0x98, 0x98, 0x89, 0x89, 0x99, 0x89, 0x89, 0x99, 0x99,
    0x89, 0x99, 0x99, 0xa9, 0x99, 0x90, 0x86, 0x7e, 0xb8, 0x77,
    0x9a, 0xca, 0xa9, 0xab, 0xbc, 0xbb, 0xcb, 0xca, 0xa8, 0x97,
    0x87, 0x88, 0x89, 0xa8, 0x99, 0xbb, 0xba, 0xba, 0xba, 0xba,
    0x97, 0x88, 0xaa, 0xba, 0xba, 0xbd, 0xa9, 0x88, 0x9b, 0x99,
    0x98, 0x9b, 0xaa, 0xbb, 0xb9, 0xc9, 0x99, 0x9b, 0xbc, 0x9a,
    0xbc, 0xba, 0x8b, 0x88, 0x66, 0x9b, 0xa6, 0x68, 0x9a, 0x7a,
    0x5c, 0xa8, 0xc9, 0x8c, 0xa9, 0xb9, 0x8b, 0xb7, 0x46, 0x56,
    0xb4, 0x68, 0x88, 0xa9, 0x9a, 0xb8, 0x88, 0x88, 0x77, 0x88,
    0x88, 0x98, 0x98, 0x99, 0x99, 0x98, 0x99, 0x99, 0x99, 0x9a,
    0x9a, 0xaa, 0x99, 0x99, 0x9a, 0xa9, 0x9a, 0x9a, 0xaa, 0x90,
    0xb8, 0xcd, 0xb7, 0x77, 0x88, 0x99, 0x79, 0x78, 0x99, 0xbc,
    0xaa, 0xaa, 0x99, 0x88, 0x7a, 0xbc, 0xbb, 0xa9, 0x68, 0x99,
    0xab, 0x9a, 0xbb, 0xdd, 0xca, 0xcc, 0xa8, 0x57, 0x6a, 0xbb,
    0x87, 0x67, 0x87, 0xa9, 0xac, 0xbb, 0xcc, 0xb9, 0x9b, 0x87,
    0x68, 0x78, 0xbb, 0xbb, 0x9a, 0xaa, 0xbb, 0xa9, 0xb9, 0x79,
    0xa7, 0xb9, 0xaa, 0xca, 0xba, 0x84, 0x88, 0x88, 0x77, 0x88,
    0x89, 0x99, 0x89, 0x99, 0x99, 0x99, 0x9a, 0xab, 0xbb, 0xaa,
    0xcb, 0xaa, 0xba, 0xca, 0xab, 0xba, 0x98, 0x89, 0x9a, 0xbc,
    0xcb, 0xba, 0xab, 0xba, 0xaa, 0xbc, 0xc9, 0xa9, 0x87, 0x77,
    0x79, 0xa7, 0x89, 0x70, 0xdb, 0x64, 0xde, 0xba, 0xa8, 0x97,
    0x9b, 0xab, 0xba, 0xbb, 0xab, 0x9a, 0x98, 0x87, 0x78, 0x99,
    0xbb, 0xcb, 0xbb, 0xba, 0xaa, 0x99, 0x8a, 0x88, 0xa9, 0xba,
    0xaa, 0xab, 0xaa, 0x97, 0x77, 0x9a, 0xaa, 0xcb, 0xbc, 0xa9,
    0xa8, 0x78, 0x89, 0x89, 0x89, 0xaa, 0xac, 0xbb, 0xab, 0xaa,
    0xa8, 0x77, 0x89, 0x89, 0x9a, 0x99, 0xa9, 0xa9, 0xb9, 0xaa,
    0xba, 0xb8, 0x9a, 0xaa, 0xa9, 0x9a, 0xba, 0x88, 0x99, 0x8b,
    0xab, 0x79, 0xbb, 0x97, 0x9b, 0x9a, 0xbb, 0xd9, 0x99, 0xa8,
    0x87, 0x88, 0x9b, 0x89, 0xab, 0xcb, 0xba, 0xaa, 0xb9, 0x99,
    0x99, 0x99, 0xaa, 0xaa, 0x99, 0x98, 0x9a, 0xa0, 0xda, 0x6c,
    0xcc, 0xa9, 0xac, 0xbb, 0xbc, 0xa9, 0x8a, 0x8a, 0x9a, 0x8b,
    0xac, 0x9b, 0xaa, 0xb8, 0x66, 0x68, 0x79, 0x9a, 0x8a, 0x99,
    0x9b, 0xbc, 0xaa, 0x78, 0x99, 0x99, 0x77, 0x86, 0x67, 0x68,
    0x87, 0x79, 0x9a, 0x99, 0x88, 0x99, 0x78, 0x8b, 0x98, 0x88,
    0x78, 0x78, 0x9a, 0x9a, 0x9b, 0xcc, 0xab, 0xbc, 0xcd, 0xcc,
    0xbb, 0xbc, 0xbb, 0xab, 0xba, 0xbb, 0xab, 0xab, 0x8b, 0xaa,
    0x9c, 0xbc, 0xbb, 0xbb, 0xa9, 0x88, 0x8d, 0xbb, 0xb9, 0x8a,
    0xab, 0xa9, 0x9c, 0xcb, 0xaa, 0xaa, 0x9b, 0xa8, 0x79, 0xb9,
    0xaa, 0xbb, 0xaa, 0x8a, 0xaa, 0xcc, 0xbb, 0xbb, 0x9a, 0xab,
    0xb9, 0xa0, 0x7d, 0xee, 0x96, 0x89, 0xcb, 0xb8, 0xaa, 0x99,
    0x9a, 0xa9, 0xa9, 0x97, 0xa8, 0x99, 0xba, 0x98, 0x89, 0x99,
    0x88, 0x78, 0x99, 0xab, 0xc9, 0xba, 0xbb, 0xaa, 0xbb, 0xa7,
    0xa8, 0x99, 0x99, 0x99, 0x99, 0xa9, 0xab, 0xa9, 0xaa, 0xba,
    0xb9, 0x88, 0xa9, 0xaa, 0x89, 0xad, 0xba, 0xa8, 0x8b, 0x88,
    0x9a, 0x99, 0xaa, 0xa9, 0xad, 0xab, 0xac, 0xb7, 0x77, 0x7c,
    0x88, 0x77, 0x75, 0x65, 0x68, 0x88, 0xa9, 0x8c, 0xbb, 0xaa,
    0xdc, 0x89, 0xcc, 0xcb, 0xb8, 0xab, 0xbb, 0x98, 0x89, 0xbc,
    0x97, 0x9b, 0xbc, 0xbb, 0xba, 0x99, 0x99, 0xba, 0x9a, 0x98,
    0xba, 0x98, 0x98, 0x76, 0x8a, 0x80, 0x78, 0xad, 0xdd, 0xec,
    0xaa, 0xa7, 0x76, 0x75, 0x77, 0x86, 0x87, 0xaa, 0xba, 0xba,
    0xca, 0xaa, 0xa9, 0x9a, 0xab, 0xbb, 0xca, 0xcb, 0x99, 0x98,
    0xb9, 0x6a, 0xa9, 0x88, 0x99, 0xa9, 0x98, 0x88, 0x9a, 0xb6,
    0x87, 0x99, 0xb7, 0x8a, 0xb9, 0x88, 0x88, 0xa9, 0xaa, 0xaa,
    0x98, 0x88, 0x98, 0xa9, 0xaa, 0x99, 0xaa, 0x98, 0x9b, 0xb9,
    0xa9, 0x98, 0xaa, 0xba, 0xba, 0xb9, 0x97, 0xa9, 0xb9, 0x99,
    0x98, 0xa8, 0x99, 0xa9, 0xaa, 0xb9, 0xa9, 0xbb, 0xaa, 0xbc,
    0xca, 0x9c, 0xbc, 0xa9, 0xbb, 0xba, 0xab, 0xbb, 0xc9, 0xaa,
    0xaa, 0xaa, 0xbb, 0xbc, 0x9a, 0xac, 0xa7, 0x78, 0xa9, 0x90,
    0xe7, 0xbb, 0xbc, 0xef, 0xc8, 0x79, 0x86, 0x66, 0x67, 0x77,
    0x77, 0x88, 0x88, 0x99, 0xa9, 0xa9, 0xa9, 0xaa, 0xcb, 0xcc,
    0xbc, 0xba, 0xaa, 0xaa, 0x9a, 0x99, 0x98, 0x8a, 0xba, 0x9a,
    0xbb, 0xb9, 0x99, 0x8b, 0xaa, 0xb9, 0xa9, 0xa9, 0x89, 0x99,
    0x99, 0x9a, 0xba, 0xaa, 0x89, 0x9a, 0xa8, 0xaa, 0xab, 0xaa,
    0xbb, 0xab, 0xab, 0x9b, 0xb9, 0xab, 0x98, 0x9b, 0x98, 0x9a,
    0x9c, 0xaa, 0xaa, 0x9b, 0xbb, 0xb9, 0x9a, 0xba, 0xba, 0xaa,
    0x8b, 0xa8, 0xa9, 0x99, 0x88, 0xa9, 0xa9, 0x9b, 0x88, 0xab,
    0xa9, 0xba, 0x9a, 0x9a, 0xab, 0x9a, 0x8a, 0xba, 0xa9, 0x98,
    0x9a, 0x99, 0xa8, 0x70, 0xdc, 0x77, 0xee, 0xbb, 0xcc, 0xc9,
    0x87, 0xaa, 0xaa, 0xa9, 0x98, 0x88, 0x88, 0x99, 0xaa, 0xbb,
    0xcc, 0xbc, 0xcc, 0xaa, 0x98, 0x88, 0x79, 0x88, 0xa8, 0x9a,
    0x98, 0x77, 0x67, 0x7a, 0xbb, 0xba, 0x8a, 0xa9, 0x87, 0xba,
    0xaa, 0xaa, 0xbb, 0x98, 0x8a, 0x89, 0x88, 0x8a, 0x99, 0xab,
    0x99, 0xba, 0x89, 0x9b, 0xb8, 0xaa, 0xca, 0xb8, 0xab, 0xa9,
    0x97, 0x9a, 0xa9, 0xa9, 0xcc, 0x88, 0xb9, 0x79, 0x9b, 0xbb,
    0xb8, 0x97, 0x8a, 0xa9, 0xbc, 0xba, 0x9a, 0xa9, 0x9a, 0xbb,
    0xcb, 0xca, 0xaa, 0x9a, 0x88, 0x99, 0x9a, 0xba, 0xba, 0x9b,
    0xab, 0xba, 0xaa, 0xaa, 0xa9, 0x99, 0x88, 0x80, 0x89, 0x86,
    0x79, 0xaa, 0x8b, 0xaa, 0x89, 0x89, 0x99, 0xaa, 0xbb, 0xbc,
    0xcc, 0xbb, 0xba, 0x88, 0x87, 0x66, 0x67, 0x89, 0x89, 0xaa,
    0xab, 0xbb, 0xbb, 0xbb, 0xab, 0xba, 0xbb, 0xba, 0xab, 0xaa,
    0x8a, 0x99, 0x89, 0x98, 0x88, 0x98, 0x8a, 0xab, 0x9a, 0x9b,
    0xab, 0x9b, 0xbc, 0xb8, 0xaa, 0xbc, 0xab, 0xbb, 0xcc, 0xb8,
    0x89, 0xb8, 0x88, 0x87, 0xa9, 0x9a, 0x86, 0x46, 0x77, 0x77,
    0x9a, 0x99, 0xa8, 0x99, 0x88, 0x89, 0xa9, 0x98, 0x99, 0xaa,
    0x99, 0xab, 0xcb, 0xbb, 0xcd, 0xcd, 0xcc, 0xdb, 0xdc, 0x9a,
    0x9a, 0xba, 0xaa, 0xa8, 0xaa, 0xaa, 0xab, 0xa9, 0xbc, 0xb8,
    0xab, 0xb0, 0xe8, 0x6a, 0xc7, 0x65, 0x68, 0x9b, 0xab, 0xcd,
    0xdd, 0xcb, 0xab, 0x99, 0x9a, 0x9a, 0x98, 0x88, 0x88, 0x88,
    0x99, 0x9b, 0x9a, 0xa9, 0xa9, 0x99, 0x9a, 0xa9, 0x88, 0xa9,
    0x89, 0x99, 0x99, 0xaa, 0x9a, 0xa9, 0xab, 0xa8, 0xaa, 0xba,
    0xaa, 0xaa, 0xcb, 0xca, 0xca, 0xa9, 0x9a, 0xcb, 0xba, 0x99,
    0xb9, 0x8a, 0xb9, 0x9a, 0xbb, 0xb8, 0x9a, 0xa9, 0x99, 0x89,
    0x9a, 0x98, 0x9a, 0x79, 0x97, 0x9b, 0x99, 0x88, 0xbb, 0xa9,
    0x9a, 0xbb, 0x8a, 0xa9, 0xaa, 0x98, 0x89, 0x99, 0xb8, 0xaa,
    0xaa, 0xa9, 0xa9, 0xaa, 0xab, 0x9b, 0xbc, 0xb9, 0x9a, 0x99,
    0xbc, 0xb9, 0xaa, 0xb9, 0x9a, 0x80, 0xa9, 0xa9, 0xa9, 0x9a,
    0xaa, 0x99, 0xa9, 0x99, 0x9a, 0xaa, 0x9a, 0x99, 0xaa, 0xaa,
    0xa9, 0x99, 0xa9, 0x9a, 0x9a, 0x9a, 0x99, 0xa9, 0x99, 0xa9,
    0xa9, 0x99, 0x9a, 0xa9, 0x99, 0x99, 0x9a, 0xa9, 0xa9, 0x9a,
    0x99, 0x9a, 0x99, 0x99, 0xa9, 0xa9, 0x99, 0x99, 0x99, 0xa9,
    0x9a, 0x99, 0xaa, 0xaa, 0xa9, 0x9a, 0xaa, 0x9a, 0xa9, 0xa9,
    0x9a, 0x9a, 0x99, 0x99, 0x9a, 0x99, 0xa9, 0x99, 0xa9, 0xaa,
    0x9a, 0x9a, 0x9a, 0xa9, 0xa9, 0xa9, 0xaa, 0x99, 0xaa, 0x9a,
    0xa9, 0x99, 0xa9, 0x99, 0x99, 0x99, 0x9a, 0x99, 0x9a, 0xaa,
    0x9a, 0x9a, 0x99, 0xaa, 0xaa, 0xa9, 0x9a, 0x99, 0xa9, 0xa0,
    0xb9, 0xce, 0xd9, 0xab, 0xab, 0xda, 0x75, 0x67, 0x77, 0x88,
    0x8a, 0xaa, 0xcb, 0xcd, 0xcc, 0xcc, 0xcc, 0xbb, 0xba, 0x99,
    0x89, 0x89, 0x99, 0x88, 0x97, 0x98, 0x89, 0x9a, 0x98, 0xab,
    0x98, 0xa8, 0x88, 0x88, 0x77, 0x78, 0x89, 0x77, 0x99, 0xab,
    0xcc, 0xba, 0xba, 0xba, 0xab, 0x9a, 0x99, 0xba, 0xaa, 0xa9,
    0x99, 0x8a, 0xab, 0xaa, 0x99, 0x9a, 0x99, 0xbb, 0x9a, 0xb9,
    0xbb, 0xba, 0xba, 0x77, 0x8a, 0x89, 0x99, 0x9b, 0x99, 0xaa,
    0x99, 0x87, 0xba, 0xce, 0xd7, 0xa8, 0xa3, 0x15, 0x55, 0x9a,
    0xab, 0xaa, 0x97, 0x59, 0x9a, 0xac, 0xbb, 0xb8, 0x89, 0xab,
    0xaa, 0xac, 0xcb, 0x90, 0xa9, 0xd1, 0xb1, 0xbc, 0x97, 0x65,
    0x3b, 0xbf, 0xd7, 0xea, 0x06, 0xbf, 0xdd, 0xa0, 0x84, 0xbd,
    0x0e, 0xc4, 0xb9, 0xbe, 0x0b, 0x58, 0x1c, 0x3f, 0xd4, 0x8a,
    0xa6, 0x3c, 0x3e, 0xcb, 0x6b, 0xbe, 0xb1, 0x11, 0x14, 0xbf,
    0x4b, 0x15, 0x88, 0x3f, 0xcb, 0xe0, 0x7b, 0x3f, 0x69, 0xf8,
    0x38, 0x3e, 0xe0, 0xd7, 0x87, 0xba, 0x71, 0xf7, 0xaa, 0x3e,
    0xb9, 0x4e, 0x04, 0x3e, 0x4b, 0xd5, 0x79, 0xbe, 0xe9, 0x4d,
    0xe8, 0xbe, 0xc7, 0x5a, 0x7f, 0xbe, 0x97, 0x0a, 0x09, 0x3f,
    0xed, 0x3e, 0x02, 0xbf, 0x6c, 0xfb, 0x73, 0xbf, 0x90, 0x4e,
    0x85, 0xbe, 0xb5, 0xad, 0x13, 0xbf, 0x1d, 0xe2, 0x48, 0xbf,
    0xca, 0xe8, 0x93, 0xbc, 0x33, 0x13, 0xec, 0xbe, 0x87, 0xd7,
    0x8a, 0xbe, 0x2f, 0xa4, 0xb0, 0xbc, 0xde, 0x5f, 0x8b, 0xbf,
    0x91, 0x41, 0x20, 0xbe, 0xe9, 0x0e, 0x8d, 0xbd, 0xde, 0xc5,
    0x61, 0x3f, 0xd9, 0x12, 0x1b, 0xbf, 0xc6, 0xcc, 0x2e, 0xbd,
    0xde, 0x04, 0xcd, 0x3e, 0x2c, 0x92, 0x23, 0xbf, 0x76, 0xa2,
    0x91, 0xbe, 0x64, 0x27, 0x18, 0x3f, 0xc8, 0x60, 0x50, 0x3f,
    0xd8, 0x5f, 0x7e, 0xbe, 0xfc, 0x55, 0xc3, 0xbe, 0x5e, 0xc7,
    0x4c, 0xbe, 0x6f, 0xca, 0xb9, 0xbe, 0x90, 0x7c, 0x2f, 0x3f,
    0xba, 0x93, 0xd6, 0xbe, 0xee, 0x94, 0x3f, 0xbf, 0xf2, 0x14,
    0xab, 0xbe, 0xdf, 0xee, 0x34, 0x3f, 0x00, 0xc3, 0x4b, 0xbd,
    0x4e, 0x19, 0xeb, 0xbe, 0x9e, 0x91, 0x8e, 0xc0, 0xe0, 0x9e,
    0x80, 0xc0, 0x43, 0x58, 0x65, 0xc0, 0x38, 0x46, 0x4f, 0xc0,
    0x8f, 0x10, 0x28, 0xc0, 0x59, 0xe9, 0x0d, 0xc0, 0x74, 0x92,
    0xcd, 0xbf, 0x99, 0x52, 0x90, 0xbf, 0x63, 0xd7, 0x38, 0xbf,
    0x6c, 0x5d, 0xc2, 0xbe, 0x66, 0x47, 0x9d, 0xbd, 0xd6, 0x03,
    0x51, 0x3e, 0x38, 0x29, 0x04, 0x3f, 0x0c, 0x9d, 0x5a, 0x3f,
    0x23, 0x7f, 0x97, 0x3f, 0xa2, 0x03, 0xda, 0x3f, 0xd9, 0xab,
    0xa5, 0xae, 0xbb, 0xca, 0xad, 0xac, 0xca, 0x8a, 0xbb, 0xbb,
    0xb9, 0xba, 0x98, 0xab, 0x8a, 0x9b, 0x98, 0x98, 0xba, 0xc8,
    0xd9, 0xaa, 0xa9, 0xba, 0xbb, 0x89, 0xc8, 0x88, 0xab, 0xcb,
    0xa8, 0xac, 0x9b, 0xbc, 0x8b, 0xaf, 0xbb, 0xad, 0xbb, 0x8b,
    0xcb, 0xba, 0x78, 0xd8, 0xac, 0xb8, 0x6b, 0xa8, 0x8b, 0x89,
    0x8b, 0x7b, 0xad, 0x78, 0x9e, 0xb9, 0xcb, 0xba, 0xb9, 0x7d,
    0xaa, 0xab, 0xc8, 0x78, 0xca, 0xbd, 0xb7, 0x9a, 0x99, 0xab,
    0xaa, 0xcb, 0xaa, 0x9a, 0xba, 0x88, 0xaa, 0xba, 0xb9, 0xb9,
    0xca, 0x98, 0xdb, 0xb9, 0x7b, 0xbb, 0xaa, 0xbc, 0xdc, 0xaa,
    0x9b, 0xae, 0x9b, 0xdb, 0xc8, 0xca, 0x6b, 0xa8, 0xb8, 0x7a,
    0xc9, 0xb8, 0xa4, 0x75, 0xbd, 0xab, 0xd9, 0xdb, 0xaa, 0x9a,
    0xba, 0x7a, 0x9b, 0x5b, 0x0b, 0x9a, 0xab, 0x86, 0x7a, 0xbe,
    0xbb, 0xac, 0xac, 0x98, 0xca, 0x6a, 0xba, 0x9b, 0xbb, 0xbb,
    0xba, 0xca, 0xc7, 0x7f, 0xa9, 0xaa, 0xaa, 0xad, 0xdb, 0xc9,
    0xe8, 0xb8, 0xad, 0x8c, 0xb9, 0x8a, 0xd9, 0xba, 0xcb, 0x9a,
    0xbd, 0x8d, 0xac, 0xb7, 0xac, 0xc6, 0xbc, 0x9a, 0xac, 0x88,
    0xac, 0x9a, 0x68, 0xaa, 0xba, 0xc7, 0xc8, 0x7f, 0xbb, 0x8b,
    0xcc, 0x87, 0xa9, 0x97, 0x9a, 0xba, 0xcc, 0xda, 0xbb, 0xb9,
    0xbc, 0x7c, 0xdb, 0xba, 0x8d, 0xaa, 0xab, 0x9c, 0xac, 0xba,
    0x99, 0xbb, 0xbb, 0xb8, 0xbb, 0x9b, 0xca, 0xab, 0xbd, 0x8a,
    0xda, 0xa9, 0x89, 0x6c, 0x9d, 0xac, 0xb9, 0x9a, 0xcb, 0xcb,
    0xbc, 0xba, 0xac, 0xdc, 0xab, 0xab, 0x89, 0x8d, 0x77, 0xcb,
    0x99, 0xab, 0xbd, 0xcb, 0xbb, 0xcc, 0x89, 0xcb, 0xc9, 0xaa,
    0xc9, 0xbb, 0xbc, 0xba, 0xbb, 0xad, 0xba, 0x8d, 0xac, 0x7b,
    0x89, 0x9b, 0xab, 0xca, 0x88, 0xbd, 0xbc, 0xba, 0xc9, 0x8a,
    0xa5, 0x88, 0x8d, 0xb8, 0xcc, 0x9b, 0xb8, 0xba, 0xb9, 0x98,
    0xa8, 0x9a, 0xab, 0x89, 0xca, 0x9e, 0xad, 0xc9, 0x8c, 0xe9,
    0x87, 0xd6, 0xac, 0x79, 0xbb, 0xbb, 0x97, 0xcc, 0xab, 0xb9,
    0xda, 0xbb, 0xbc, 0xba, 0xcb, 0xb9, 0xbb, 0x7b, 0xae, 0x9a,
    0xb8, 0x8e, 0x8d, 0xcd, 0x78, 0xad, 0xcb, 0xbc, 0xdd, 0xba,
    0xb9, 0xac, 0x7a, 0xd8, 0xba, 0xc9, 0xbc, 0x8b, 0xba, 0x7a,
    0xaa, 0x8a, 0x9c, 0xaa, 0x9a, 0x9c, 0xac, 0xb7, 0xac, 0xba,
    0xc8, 0x8a, 0xad, 0xde, 0xcb, 0xca, 0xaa, 0xb8, 0x86, 0xba,
    0xa9, 0xac, 0x9a, 0x8e, 0xcd, 0xac, 0xba, 0xcb, 0xa9, 0xab,
    0xbc, 0x59, 0x9e, 0xcb, 0xc5, 0x9a, 0xb9, 0xbc, 0x8b, 0xaa,
    0xc8, 0xcc, 0xca, 0x8b, 0x8b, 0xbc, 0x9c, 0x9a, 0x9c, 0xc7,
    0xbe, 0x9b, 0xc8, 0xca, 0xeb, 0xac, 0xa9, 0xba, 0x9e, 0xad,
    0x8c, 0xa6, 0xba, 0x8b, 0xca, 0x99, 0xcc, 0x8b, 0xa7, 0xbb,
    0x8b, 0x9c, 0x97, 0x9c, 0xda, 0xab, 0xb9, 0xbc, 0xaa, 0x8a,
    0xcc, 0x77, 0x9d, 0x9d, 0xaa, 0xa8, 0xbb, 0xb9, 0xab, 0xc9,
    0xac, 0x78, 0xda, 0xb8, 0x7c, 0xba, 0xda, 0xcb, 0xba, 0xbc,
    0xab, 0xba, 0x9a, 0xcb, 0xaa, 0x89, 0x6f, 0xb9, 0xad, 0x97,
    0xbb, 0xba, 0xaa, 0x8a, 0xba, 0xc7, 0xab, 0xcd, 0x6b, 0xab,
    0x98, 0xaf, 0xba, 0xc8, 0xca, 0xab, 0x9a, 0xb8, 0xa9, 0xcb,
    0x9a, 0xac, 0xab, 0xcb, 0x98, 0xcc, 0xcb, 0xbd, 0x47, 0x9a,
    0x85, 0xcb, 0x9b, 0xba, 0x7d, 0x89, 0x87, 0x49, 0xb6, 0x9a,
    0xaa, 0xca, 0x8c, 0x9a, 0xab, 0xcb, 0xb4, 0xa8, 0xc7, 0x77,
    0x6d, 0xcc, 0x98, 0xa8, 0xba, 0xab, 0xa9, 0x9c, 0xcc, 0xc9,
    0xaa, 0xc9, 0xac, 0xae, 0xbe, 0xad, 0xab, 0xad, 0x9a, 0x9a,
    0xd8, 0xc7, 0xae, 0xc9, 0x9f, 0x86, 0xcc, 0xb7, 0x9e, 0xaa,
    0xdb, 0x8a, 0x9b, 0xbb, 0x89, 0xbb, 0x9c, 0x79, 0xc8, 0x98,
    0xbd, 0x9a, 0xc7, 0x99, 0xcb, 0xab, 0x96, 0xba, 0xc9, 0x8e,
    0xea, 0xc9, 0xad, 0xba, 0xaa, 0x89, 0xb9, 0x4c, 0xc9, 0xda,
    0xb7, 0xac, 0xab, 0x9e, 0x8c, 0xb9, 0xba, 0xa6, 0xaa, 0xca,
    0xc9, 0xb8, 0xbe, 0xa8, 0xc7, 0xa8, 0x7d, 0xba, 0x9c, 0xba,
    0x9b, 0xa6, 0xcb, 0xa9, 0x79, 0xc8, 0x8c, 0xba, 0xcc, 0xc9,
    0xa6, 0x9b, 0xbd, 0x89, 0xca, 0xbb, 0xcb, 0x7b, 0xdb, 0x9c,
    0xcd, 0xac, 0xb6, 0xca, 0xca, 0xcb, 0xc9, 0xd8, 0xa8, 0xac,
    0x87, 0xa9, 0xba, 0xae, 0x8c, 0xb9, 0x9a, 0xaa, 0xb9, 0x9b,
    0xb5, 0x69, 0x7d, 0xed, 0xb9, 0x9d, 0xcb, 0xa9, 0xac, 0xca,
    0x9a, 0x89, 0xb9, 0xac, 0xaa, 0xaa, 0xb8, 0xbb, 0xca, 0xaa,
    0xab, 0xbb, 0xa9, 0xa9, 0xca, 0xde, 0x9d, 0xaa, 0xd7, 0xc9,
    0xa8, 0xc9, 0xa8, 0xab, 0xbb, 0xd8, 0xbc, 0xda, 0x98, 0x8a,
    0xd9, 0xbe, 0xc9, 0xab, 0x79, 0xad, 0xbb, 0xa9, 0xcb, 0xca,
    0x7b, 0xca, 0x8c, 0xca, 0x9c, 0x9a, 0xa9, 0xbb, 0xcb, 0xaa,
    0xca, 0x6c, 0xd9, 0xdb, 0xb7, 0xaa, 0x9c, 0xbb, 0xaa, 0xb8,
    0x9b, 0xab, 0xda, 0x78, 0xab, 0xdb, 0xbd, 0x9d, 0xcc, 0x85,
    0xbc, 0xaa, 0xac, 0xbc, 0x9b, 0xac, 0x67, 0xdb, 0xba, 0xba,
    0xc8, 0x9c, 0xcb, 0xab, 0xcb, 0xa7, 0x9b, 0xca, 0x98, 0xba,
    0xbd, 0xb7, 0xb9, 0xa9, 0xc9, 0xb9, 0xbb, 0xbc, 0xb7, 0xaa,
    0x8a, 0x9b, 0xab, 0xdc, 0x8a, 0xba, 0xc9, 0xc9, 0x9a, 0x9b,
    0xa6, 0xaa, 0xc9, 0xdb, 0x9b, 0xab, 0x99, 0xba, 0x8c, 0xda,
    0x88, 0x9c, 0x98, 0xa9, 0xaa, 0x96, 0xc9, 0xcc, 0xa7, 0x8a,
    0xab, 0xaa, 0x9a, 0xdd, 0x9e, 0xba, 0x9b, 0xb7, 0xca, 0xeb,
    0xaa, 0xa8, 0xcc, 0xab, 0xaa, 0xcc, 0x9c, 0xae, 0xfc, 0xbb,
    0xe7, 0xcc, 0xd7, 0xaa, 0x8a, 0xba, 0xa9, 0xcc, 0x9c, 0xca,
    0xad, 0xba, 0xc9, 0x8b, 0xaa, 0xc9, 0x9a, 0xb6, 0xba, 0x9a,
    0x9c, 0xaa, 0xac, 0x8d, 0xda, 0xec, 0xca, 0xca, 0xb6, 0xa8,
    0xba, 0xba, 0xcc, 0xb7, 0x9d, 0xba, 0x9a, 0x88, 0xaa, 0xaa,
    0x99, 0x99, 0xa7, 0x88, 0x9b, 0xb8, 0xbd, 0x9a, 0xca, 0xdb,
    0xb7, 0xda, 0xb9, 0x8b, 0xae, 0xcc, 0xd9, 0x7a, 0xa7, 0x8a,
    0xab, 0x9a, 0xba, 0xaa, 0xab, 0xbb, 0xbd, 0x8f, 0xca, 0xbc,
    0x8b, 0x88, 0xad, 0xbc, 0xdb, 0xaa, 0xa7, 0x9a, 0xbb, 0xc9,
    0xca, 0xeb, 0xd9, 0x8a, 0x7d, 0xab, 0xcb, 0xc8, 0xec, 0x8a,
    0xaa, 0x88, 0x8b, 0xa8, 0xb9, 0xbb, 0xaa, 0xac, 0x99, 0xbb,
    0xaa, 0xbb, 0xc6, 0xda, 0xe6, 0xba, 0x9c, 0x9b, 0x9e, 0xcb,
    0xbb, 0xcb, 0x9b, 0xad, 0x9a, 0xb9, 0x8b, 0xbd, 0xaa, 0xae,
    0xbb, 0xcc, 0xbb, 0xba, 0xc9, 0xba, 0xc7, 0xc7, 0xba, 0xa7,
    0x86, 0xc8, 0x8b, 0xad, 0xdd, 0xbc, 0x9a, 0x8c, 0xc9, 0xaa,
    0xb9, 0xaa, 0xad, 0xbb, 0xdb, 0xca, 0xc9, 0xbe, 0xbc, 0xba,
    0xcc, 0xca, 0xa7, 0x7c, 0xa6, 0xd8, 0x9c, 0xac, 0xcb, 0x9c,
    0xae, 0x99, 0xca, 0xaa, 0x5b, 0xa9, 0xa7, 0xaf, 0xca, 0xa9,
    0xaa, 0x8a, 0xa8, 0x9b, 0xb9, 0x98, 0xa9, 0x9d, 0xaa, 0xbb,
    0x67, 0xda, 0xcb, 0xdb, 0x7a, 0xad, 0x9b, 0xb7, 0xac, 0x8a,
    0xaa, 0xad, 0xda, 0xba, 0x8c, 0x9d, 0xea, 0xa9, 0xa9, 0x9a,
    0xa9, 0xab, 0xab, 0xaa, 0xaa, 0xaa, 0xaa, 0x9b, 0x9a, 0xb9,
    0xaa, 0xaa, 0xba, 0xaa, 0x9b, 0xaa, 0xaa, 0xab, 0xaa, 0xaa,
    0xa9, 0x9a, 0xab, 0xc9, 0xcb, 0x9d, 0xa8, 0xb9, 0xb9, 0xac,
    0xba, 0xba, 0x7a, 0x7a, 0xad, 0xba, 0x8a, 0x7c, 0x9b, 0xbb,
    0xaa, 0x8a, 0x78, 0xb8, 0xab, 0xaa, 0x9c, 0xaa, 0xa5, 0x7a,
    0xb7, 0x9a, 0x7b, 0xcb, 0xac, 0xc9, 0xb8, 0x69, 0x9a, 0xaa,
    0xab, 0xaa, 0xab, 0xbe, 0xca, 0xca, 0x96, 0xa7, 0xaa, 0xcd,
    0xb8, 0xbb, 0x9e, 0xaa, 0xbb, 0xba, 0xb6, 0xab, 0xa9, 0xcc,
    0xba, 0xba, 0x9a, 0xa8, 0xad, 0xae, 0xda, 0xad, 0xbc, 0x7a,
    0xb9, 0x78, 0xa9, 0x8a, 0xa7, 0xbc, 0xcc, 0xac, 0xbc, 0xca,
    0x6b, 0x89, 0xcb, 0x9d, 0xd9, 0xcc, 0x99, 0xbc, 0xaa, 0xdb,
    0xab, 0xaa, 0x9a, 0xa8, 0xaa, 0xaa, 0xa8, 0xb9, 0x88, 0x98,
    0xc9, 0xcc, 0xac, 0xc9, 0xab, 0x9a, 0x89, 0xda, 0xb3, 0xdb,
    0xac, 0xa8, 0x9b, 0xc8, 0xcb, 0xb9, 0x9a, 0x69, 0xbb, 0x5a,
    0xaa, 0xbe, 0x69, 0xec, 0x6e, 0xb9, 0xaa, 0xb6, 0x9a, 0x9b,
    0xcc, 0x7d, 0x8b, 0xb9, 0xbc, 0xb4, 0xb8, 0x79, 0x8d, 0xd6,
    0xac, 0xba, 0x8c, 0xba, 0xdb, 0xd6, 0xac, 0xbc, 0xc8, 0xab,
    0xcc, 0x7b, 0xc9, 0xcb, 0x7b, 0xac, 0xca, 0xab, 0xac, 0xaa,
    0xad, 0xd9, 0x9c, 0x88, 0x6a, 0xb5, 0xaa, 0x9b, 0xcd, 0x9a,
    0xb9, 0xb8, 0x9b, 0x99, 0xc7, 0xc8, 0xeb, 0xac, 0xba, 0xcb,
    0xbc, 0xd9, 0xb7, 0x6a, 0x96, 0xac, 0xb9, 0xe9, 0x9c, 0xdd,
    0xbe, 0x4a, 0xbb, 0x79, 0x8b, 0x8d, 0xaa, 0xac, 0xbb, 0xc8,
    0xbc, 0xc9, 0xa8, 0xa9, 0xaa, 0xea, 0xa9, 0x8a, 0x9a, 0x98,
    0xca, 0x8e, 0xb9, 0xdb, 0xea, 0xa9, 0xca, 0xcd, 0x8a, 0xcb,
    0xba, 0xab, 0x9c, 0xcb, 0xaa, 0xba, 0xd9, 0xac, 0xb9, 0xda,
    0xab, 0xbb, 0x8b, 0xaa, 0x8a, 0xba, 0xcc, 0xab, 0xa7, 0x8b,
    0xba, 0x9a, 0xbb, 0x9c, 0xda, 0xfb, 0xa5, 0xb9, 0x88, 0x9a,
    0xb7, 0xad, 0xa9, 0xbd, 0x9a, 0xbd, 0xbb, 0xba, 0x87, 0xaa,
    0x8c, 0xa8, 0xac, 0xbc, 0x8b, 0xab, 0x6b, 0xa5, 0x6a, 0xba,
    0x8a, 0x88, 0x99, 0x6c, 0x9b, 0xdb, 0xda, 0xaa, 0x00, 0x00,
    0x4a, 0x2b, 0xa3, 0xbe, 0x0c, 0xb8, 0xaf, 0x3e, 0xa1, 0x86,
    0x88, 0x3e, 0xea, 0x4b, 0xca, 0xbe, 0xe6, 0x5e, 0x41, 0x3f,
    0xb9, 0xc5, 0x74, 0x3f, 0x5a, 0x47, 0x84, 0x3e, 0x25, 0xd1,
    0xb7, 0xbe, 0x35, 0xd4, 0x92, 0xbf, 0xbf, 0xaf, 0xd1, 0x3e,
    0x33, 0x94, 0x00, 0x3f, 0xd7, 0x59, 0x1f, 0x3f, 0xed, 0xbc,
    0x51, 0x3e, 0x54, 0x24, 0x76, 0xbf, 0xba, 0x81, 0xc4, 0xbf,
    0xb8, 0xa7, 0x2a, 0xbf, 0xe1, 0x1c, 0xa3, 0xbe, 0x81, 0xba,
    0xa0, 0xbe, 0xd6, 0x5f, 0x60, 0x3f, 0x8d, 0xc1, 0x4c, 0xbf,
    0x90, 0xdc, 0x7f, 0x3e, 0xfa, 0x92, 0x57, 0x3e, 0x06, 0xf9,
    0xc3, 0x3c, 0x20, 0x57, 0x4c, 0x3d, 0x74, 0xc1, 0xe8, 0xbe,
    0xd4, 0x55, 0x79, 0xbe, 0x0e, 0xf2, 0xd6, 0xbe, 0x8b, 0xe5,
    0x8e, 0x3e, 0xb0, 0xc3, 0xa4, 0x3f, 0x59, 0xf0, 0x31, 0xbf,
    0x78, 0x03, 0x2b, 0xbf, 0xb1, 0x00, 0xb5, 0x3e, 0xdc, 0x18,
    0x01, 0xbe, 0xd9, 0xbf, 0xe3, 0xbe, 0x82, 0x75, 0xb0, 0xbe,
    0x41, 0x01, 0x73, 0xbf, 0x6d, 0xea, 0xc2, 0xbe, 0x10, 0xae,
    0x30, 0xbf, 0xd5, 0x71, 0x16, 0xbe, 0x5d, 0x5e, 0xd1, 0x3d,
    0xfa, 0x33, 0x21, 0x3f, 0x51, 0x68, 0x21, 0xbf, 0x6b, 0x19,
    0x1f, 0x3e, 0xb2, 0x0e, 0x5f, 0x3e, 0x33, 0x65, 0xec, 0xbe,
    0x1d, 0xb0, 0x49, 0xbf, 0x3c, 0xdf, 0x7d, 0xbf, 0xf7, 0x22,
    0xca, 0xbe, 0x0c, 0xc1, 0xab, 0x3d, 0x12, 0x2e, 0x07, 0x3f,
    0x9b, 0x88, 0x4f, 0xc0, 0x41, 0xb5, 0x31, 0xc0, 0xd5, 0x11,
    0x22, 0xc0, 0x64, 0x1a, 0x1c, 0xc0, 0x47, 0xa1, 0xfb, 0xbf,
    0xec, 0x6a, 0xc7, 0xbf, 0xe6, 0x0d, 0xa6, 0xbf, 0xf6, 0x66,
    0x8d, 0xbf, 0xab, 0x54, 0x4d, 0xbf, 0xdb, 0x6e, 0xee, 0xbe,
    0x0f, 0x25, 0xd4, 0xbd, 0x1d, 0xfa, 0x51, 0x3e, 0x72, 0xbc,
    0xed, 0x3e, 0x28, 0xa5, 0x3e, 0x3f, 0xfa, 0x2a, 0x87, 0x3f,
    0x3e, 0xb7, 0xae, 0x3f, 0xbb, 0x8b, 0x57, 0xbb, 0xbc, 0x9b,
    0xcc, 0xed, 0xdb, 0x7b, 0x9b, 0x8c, 0xb9, 0xcb, 0x9c, 0xa7,
    0xbc, 0xbe, 0xab, 0xad, 0x9c, 0xa7, 0xca, 0xaa, 0xa7, 0x7b,
    0xbc, 0x9b, 0xab, 0xba, 0x8c, 0xaa, 0x8a, 0xa9, 0xbc, 0xda,
    0xd8, 0xbc, 0xa8, 0xaa, 0xdb, 0xd9, 0xa7, 0x58, 0xb6, 0xaa,
    0xbe, 0x58, 0x67, 0x8d, 0xa8, 0xb9, 0xdc, 0x0b, 0xa8, 0x86,
    0x95, 0x97, 0x8b, 0xbc, 0x9b, 0x94, 0x9a, 0xaa, 0xbb, 0x9c,
    0xcb, 0xb9, 0xcc, 0xa4, 0xda, 0x97, 0xbc, 0xfb, 0xbc, 0xc8,
    0xba, 0xda, 0xbc, 0x69, 0xec, 0xab, 0x63, 0x9b, 0x87,
    0xa2, 0x87, 0x8b, 0x4a, 0xc4, 0xa9, 0xbb, 0xc5, 0xbb,
    0xad, 0xa8, 0xcd, 0xab, 0xdb, 0x8a, 0x59, 0xc9, 0xad,
    0xf8, 0x5a, 0x46, 0xd9, 0x48, 0xdb, 0xe6, 0xde, 0xbd,
    0xa5, 0xac, 0xeb, 0x6b, 0x39, 0x59, 0x96, 0xb5, 0x87,
    0xbd, 0x89, 0x1c, 0xbd, 0x00, 0x00, 0x00, 0x8b, 0x8a,
    0x4f, 0xbe, 0x47, 0x14, 0xc2, 0x3e, 0x75, 0xd8, 0x0d,
    0xbe, 0x8b, 0xb5, 0xed, 0xbe, 0xfa, 0xba, 0xf4, 0x3e
  };

  return AI_HANDLE_PTR(s_network_weights);

}

